TRT-8502-EntropyCalibration2
images: 3bf80000
/model.0/conv/Conv_output_0: 3e548876
/model.0/act/Sigmoid_output_0: 3c010a14
/model.0/act/Mul_output_0: 3d03617d
/model.1/conv/Conv_output_0: 3e37ec05
/model.1/act/Sigmoid_output_0: 3c010a14
/model.1/act/Mul_output_0: 3e1bd9bd
/model.2/cv1/conv/Conv_output_0: 3e867be0
/model.2/cv1/act/Sigmoid_output_0: 3c010a14
/model.2/cv1/act/Mul_output_0: 3dbf8b04
/model.2/Split_output_0: 3e0dfeae
/model.2/Split_output_1: 3d8d3aa4
/model.2/m.0/cv1/conv/Conv_output_0: 3dffa44b
/model.2/m.0/cv1/act/Sigmoid_output_0: 3c05fbf3
/model.2/m.0/cv1/act/Mul_output_0: 3d3a94c7
/model.2/m.0/cv2/conv/Conv_output_0: 3e0bc65a
/model.2/m.0/cv2/act/Sigmoid_output_0: 3c010a14
/model.2/m.0/cv2/act/Mul_output_0: 3dbd2e6e
/model.2/m.0/Add_output_0: 3e0e67b4
/model.2/Concat_output_0: 3e101a71
/model.2/cv2/conv/Conv_output_0: 3d763c3a
/model.2/cv2/act/Sigmoid_output_0: 3c00ce16
/model.2/cv2/act/Mul_output_0: 3d230892
/model.3/conv/Conv_output_0: 3d3ee24c
/model.3/act/Sigmoid_output_0: 3bffd6b5
/model.3/act/Mul_output_0: 3cd23834
/model.4/cv1/conv/Conv_output_0: 3d9fc5fa
/model.4/cv1/act/Sigmoid_output_0: 3c008783
/model.4/cv1/act/Mul_output_0: 3ccfef60
/model.4/Split_output_0: 3ce5ccd8
/model.4/Split_output_1: 3cb65332
/model.4/m.0/cv1/conv/Conv_output_0: 3cd7845b
/model.4/m.0/cv1/act/Sigmoid_output_0: 3bf37b5b
/model.4/m.0/cv1/act/Mul_output_0: 3c875304
/model.4/m.0/cv2/conv/Conv_output_0: 3d196395
/model.4/m.0/cv2/act/Sigmoid_output_0: 3bfd8478
/model.4/m.0/cv2/act/Mul_output_0: 3cafd345
/model.4/m.0/Add_output_0: 3d029eea
/model.4/m.1/cv1/conv/Conv_output_0: 3d1e3448
/model.4/m.1/cv1/act/Sigmoid_output_0: 3be81b88
/model.4/m.1/cv1/act/Mul_output_0: 3b105002
/model.4/m.1/cv2/conv/Conv_output_0: 3d596ec5
/model.4/m.1/cv2/act/Sigmoid_output_0: 3c00cd47
/model.4/m.1/cv2/act/Mul_output_0: 3d2461f4
/model.4/m.1/Add_output_0: 3d86c3c8
/model.4/Concat_output_0: 3d418a1e
/model.4/cv2/conv/Conv_output_0: 3d412e10
/model.4/cv2/act/Sigmoid_output_0: 3bf8049c
/model.4/cv2/act/Mul_output_0: 3c8090d4
/model.5/conv/Conv_output_0: 3d242653
/model.5/act/Sigmoid_output_0: 3bfe0cb2
/model.5/act/Mul_output_0: 3c8843b1
/model.6/cv1/conv/Conv_output_0: 3d5004cb
/model.6/cv1/act/Sigmoid_output_0: 3c007481
/model.6/cv1/act/Mul_output_0: 3d00599c
/model.6/Split_output_0: 3d10f3d9
/model.6/Split_output_1: 3ca495d8
/model.6/m.0/cv1/conv/Conv_output_0: 3d53224f
/model.6/m.0/cv1/act/Sigmoid_output_0: 3bff4ba1
/model.6/m.0/cv1/act/Mul_output_0: 3c8fae51
/model.6/m.0/cv2/conv/Conv_output_0: 3d316e9a
/model.6/m.0/cv2/act/Sigmoid_output_0: 3bfd1fdc
/model.6/m.0/cv2/act/Mul_output_0: 3cc0174f
/model.6/m.0/Add_output_0: 3d0f7e4d
/model.6/m.1/cv1/conv/Conv_output_0: 3d578d2b
/model.6/m.1/cv1/act/Sigmoid_output_0: 3bf90162
/model.6/m.1/cv1/act/Mul_output_0: 3c5226ce
/model.6/m.1/cv2/conv/Conv_output_0: 3d8cc8a7
/model.6/m.1/cv2/act/Sigmoid_output_0: 3c01076f
/model.6/m.1/cv2/act/Mul_output_0: 3d3ea482
/model.6/m.1/Add_output_0: 3d8c3a01
/model.6/Concat_output_0: 3d246b6e
/model.6/cv2/conv/Conv_output_0: 3d3f037c
/model.6/cv2/act/Sigmoid_output_0: 3bfd7e14
/model.6/cv2/act/Mul_output_0: 3c66c454
/model.7/conv/Conv_output_0: 3d5189f2
/model.7/act/Sigmoid_output_0: 3c04b84b
/model.7/act/Mul_output_0: 3c800a7d
/model.8/cv1/conv/Conv_output_0: 3d2cd8ba
/model.8/cv1/act/Sigmoid_output_0: 3c00c09a
/model.8/cv1/act/Mul_output_0: 3cc02dcf
/model.8/Split_output_0: 3cd110ba
/model.8/Split_output_1: 3c735a78
/model.8/m.0/cv1/conv/Conv_output_0: 3d4ab1fa
/model.8/m.0/cv1/act/Sigmoid_output_0: 3c000697
/model.8/m.0/cv1/act/Mul_output_0: 3c9af98c
/model.8/m.0/cv2/conv/Conv_output_0: 3d8b4718
/model.8/m.0/cv2/act/Sigmoid_output_0: 3c00f41d
/model.8/m.0/cv2/act/Mul_output_0: 3d4142fc
/model.8/m.0/Add_output_0: 3d7f18ca
/model.8/Concat_output_0: 3cff4c4e
/model.8/cv2/conv/Conv_output_0: 3d632036
/model.8/cv2/act/Sigmoid_output_0: 3c053822
/model.8/cv2/act/Mul_output_0: 3ce6d83b
/model.9/cv1/conv/Conv_output_0: 3d3fd206
/model.9/cv1/act/Sigmoid_output_0: 3c00bdb5
/model.9/cv1/act/Mul_output_0: 3d42c2f2
/model.9/m/MaxPool_output_0: 3d42c2f2
/model.9/m_1/MaxPool_output_0: 3d42c2f2
/model.9/m_2/MaxPool_output_0: 3d42c2f2
/model.9/Concat_output_0: 3d6a195d
/model.9/cv2/conv/Conv_output_0: 3d8c1788
/model.9/cv2/act/Sigmoid_output_0: 3c020295
/model.9/cv2/act/Mul_output_0: 3c3fde64
/model.10/Resize_output_0: 3c3fde64
/model.11/Concat_output_0: 3c3fde64
/model.12/cv1/conv/Conv_output_0: 3d3eb0f7
/model.12/cv1/act/Sigmoid_output_0: 3bfe8b48
/model.12/cv1/act/Mul_output_0: 3cb1ce64
/model.12/Split_output_0: 3ca4fc98
/model.12/Split_output_1: 3cb20b49
/model.12/m.0/cv1/conv/Conv_output_0: 3d88a1c9
/model.12/m.0/cv1/act/Sigmoid_output_0: 3c063d99
/model.12/m.0/cv1/act/Mul_output_0: 3ca69398
/model.12/m.0/cv2/conv/Conv_output_0: 3da6643e
/model.12/m.0/cv2/act/Sigmoid_output_0: 3c16131a
/model.12/m.0/cv2/act/Mul_output_0: 3d440047
/model.12/Concat_output_0: 3d02cc81
/model.12/cv2/conv/Conv_output_0: 3d806c61
/model.12/cv2/act/Sigmoid_output_0: 3c00a05d
/model.12/cv2/act/Mul_output_0: 3c724800
/model.13/Resize_output_0: 3c724800
/model.14/Concat_output_0: 3c8090d4
/model.15/cv1/conv/Conv_output_0: 3d3b0bad
/model.15/cv1/act/Sigmoid_output_0: 3c005ed1
/model.15/cv1/act/Mul_output_0: 3cb115ad
/model.15/Split_output_0: 3cb0b995
/model.15/Split_output_1: 3cb197b5
/model.15/m.0/cv1/conv/Conv_output_0: 3d399a51
/model.15/m.0/cv1/act/Sigmoid_output_0: 3bfb70e0
/model.15/m.0/cv1/act/Mul_output_0: 3c7f79dd
/model.15/m.0/cv2/conv/Conv_output_0: 3d853861
/model.15/m.0/cv2/act/Sigmoid_output_0: 3c00d944
/model.15/m.0/cv2/act/Mul_output_0: 3d00655c
/model.15/Concat_output_0: 3cd211fd
/model.15/cv2/conv/Conv_output_0: 3d81f5d0
/model.15/cv2/act/Sigmoid_output_0: 3c0075eb
/model.15/cv2/act/Mul_output_0: 3cb1e214
/model.16/conv/Conv_output_0: 3d62c30c
/model.16/act/Sigmoid_output_0: 3c00c937
/model.16/act/Mul_output_0: 3cb156b3
/model.17/Concat_output_0: 3cb156b3
/model.18/cv1/conv/Conv_output_0: 3d600517
/model.18/cv1/act/Sigmoid_output_0: 3c0081b5
/model.18/cv1/act/Mul_output_0: 3cbf6ba9
/model.18/Split_output_0: 3cc143b3
/model.18/Split_output_1: 3cbf314b
/model.18/m.0/cv1/conv/Conv_output_0: 3d5517fc
/model.18/m.0/cv1/act/Sigmoid_output_0: 3c00e67b
/model.18/m.0/cv1/act/Mul_output_0: 3c9994a1
/model.18/m.0/cv2/conv/Conv_output_0: 3d98f9cf
/model.18/m.0/cv2/act/Sigmoid_output_0: 3c010961
/model.18/m.0/cv2/act/Mul_output_0: 3d271256
/model.18/Concat_output_0: 3d11bb86
/model.18/cv2/conv/Conv_output_0: 3d74a2d3
/model.18/cv2/act/Sigmoid_output_0: 3c1065ce
/model.18/cv2/act/Mul_output_0: 3cc33958
/model.19/conv/Conv_output_0: 3d7d58de
/model.19/act/Sigmoid_output_0: 3c085e81
/model.19/act/Mul_output_0: 3d02161f
/model.20/Concat_output_0: 3cd4b5d8
/model.21/cv1/conv/Conv_output_0: 3d89e77b
/model.21/cv1/act/Sigmoid_output_0: 3c01ef8d
/model.21/cv1/act/Mul_output_0: 3cd16367
/model.21/Split_output_0: 3cbef4fc
/model.21/Split_output_1: 3cd4b222
/model.21/m.0/cv1/conv/Conv_output_0: 3d7047d1
/model.21/m.0/cv1/act/Sigmoid_output_0: 3c05fe5c
/model.21/m.0/cv1/act/Mul_output_0: 3cc0d571
/model.21/m.0/cv2/conv/Conv_output_0: 3db7cb94
/model.21/m.0/cv2/act/Sigmoid_output_0: 3c010766
/model.21/m.0/cv2/act/Mul_output_0: 3d11be46
/model.21/Concat_output_0: 3d11be46
/model.21/cv2/conv/Conv_output_0: 3dbd5bff
/model.21/cv2/act/Sigmoid_output_0: 3c0875e4
/model.21/cv2/act/Mul_output_0: 3d106309
/model.22/cv4.0/cv4.0.0/conv/Conv_output_0: 3dedb75a
/model.22/cv4.0/cv4.0.0/act/Sigmoid_output_0: 3c011205
/model.22/cv4.0/cv4.0.0/act/Mul_output_0: 3d111ac9
/model.22/cv4.0/cv4.0.1/conv/Conv_output_0: 3ddd5b76
/model.22/cv4.0/cv4.0.1/act/Sigmoid_output_0: 3c010a11
/model.22/cv4.0/cv4.0.1/act/Mul_output_0: 3d6b767a
/model.22/cv4.0/cv4.0.2/Conv_output_0: 3d3fc69e
/model.22/Reshape_output_0: 3d3fc69e
/model.22/cv4.1/cv4.1.0/conv/Conv_output_0: 3db36a60
/model.22/cv4.1/cv4.1.0/act/Sigmoid_output_0: 3c0538d6
/model.22/cv4.1/cv4.1.0/act/Mul_output_0: 3d415776
/model.22/cv4.1/cv4.1.1/conv/Conv_output_0: 3dcc29ec
/model.22/cv4.1/cv4.1.1/act/Sigmoid_output_0: 3c0212d2
/model.22/cv4.1/cv4.1.1/act/Mul_output_0: 3d6cc285
/model.22/cv4.1/cv4.1.2/Conv_output_0: 3d65d076
/model.22/Reshape_1_output_0: 3d65d076
/model.22/cv4.2/cv4.2.0/conv/Conv_output_0: 3d95a6a0
/model.22/cv4.2/cv4.2.0/act/Sigmoid_output_0: 3c023a18
/model.22/cv4.2/cv4.2.0/act/Mul_output_0: 3d3f6ab4
/model.22/cv4.2/cv4.2.1/conv/Conv_output_0: 3d7fb5f0
/model.22/cv4.2/cv4.2.1/act/Sigmoid_output_0: 3c094e60
/model.22/cv4.2/cv4.2.1/act/Mul_output_0: 3d43473d
/model.22/cv4.2/cv4.2.2/Conv_output_0: 3d4ffb4c
/model.22/Reshape_2_output_0: 3d4ffb4c
/model.22/Concat_4_output_0: 3d51eff7
/model.22/cv2.0/cv2.0.0/conv/Conv_output_0: 3d850166
/model.22/cv2.0/cv2.0.0/act/Sigmoid_output_0: 3c002086
/model.22/cv2.0/cv2.0.0/act/Mul_output_0: 3c908b03
/model.22/cv2.0/cv2.0.1/conv/Conv_output_0: 3e3e1193
/model.22/cv2.0/cv2.0.1/act/Sigmoid_output_0: 3c010a14
/model.22/cv2.0/cv2.0.1/act/Mul_output_0: 3dc24f90
/model.22/cv2.0/cv2.0.2/Conv_output_0: 3daf6dd6
/model.22/cv3.0/cv3.0.0/conv/Conv_output_0: 3d585441
/model.22/cv3.0/cv3.0.0/act/Sigmoid_output_0: 3c001f51
/model.22/cv3.0/cv3.0.0/act/Mul_output_0: 3c8fed46
/model.22/cv3.0/cv3.0.1/conv/Conv_output_0: 3dd9a627
/model.22/cv3.0/cv3.0.1/act/Sigmoid_output_0: 3c010a14
/model.22/cv3.0/cv3.0.1/act/Mul_output_0: 3d43c17b
/model.22/cv3.0/cv3.0.2/Conv_output_0: 3e202685
/model.22/Concat_5_output_0: 3e193e7e
/model.22/cv2.1/cv2.1.0/conv/Conv_output_0: 3d72a810
/model.22/cv2.1/cv2.1.0/act/Sigmoid_output_0: 3c0650a6
/model.22/cv2.1/cv2.1.0/act/Mul_output_0: 3cc1cd77
/model.22/cv2.1/cv2.1.1/conv/Conv_output_0: 3e3b1eff
/model.22/cv2.1/cv2.1.1/act/Sigmoid_output_0: 3c010a14
/model.22/cv2.1/cv2.1.1/act/Mul_output_0: 3dc6cf7c
/model.22/cv2.1/cv2.1.2/Conv_output_0: 3dbba11e
/model.22/cv3.1/cv3.1.0/conv/Conv_output_0: 3d58e04f
/model.22/cv3.1/cv3.1.0/act/Sigmoid_output_0: 3c004ea1
/model.22/cv3.1/cv3.1.0/act/Mul_output_0: 3cb1e257
/model.22/cv3.1/cv3.1.1/conv/Conv_output_0: 3e2f6323
/model.22/cv3.1/cv3.1.1/act/Sigmoid_output_0: 3c0be7cf
/model.22/cv3.1/cv3.1.1/act/Mul_output_0: 3d623b99
/model.22/cv3.1/cv3.1.2/Conv_output_0: 3e563a1b
/model.22/Concat_6_output_0: 3e44b3aa
/model.22/cv2.2/cv2.2.0/conv/Conv_output_0: 3d4f10ad
/model.22/cv2.2/cv2.2.0/act/Sigmoid_output_0: 3c013043
/model.22/cv2.2/cv2.2.0/act/Mul_output_0: 3cd221c7
/model.22/cv2.2/cv2.2.1/conv/Conv_output_0: 3e2392ed
/model.22/cv2.2/cv2.2.1/act/Sigmoid_output_0: 3c010a14
/model.22/cv2.2/cv2.2.1/act/Mul_output_0: 3dbf99a3
/model.22/cv2.2/cv2.2.2/Conv_output_0: 3db2ce76
/model.22/cv3.2/cv3.2.0/conv/Conv_output_0: 3d88bd7a
/model.22/cv3.2/cv3.2.0/act/Sigmoid_output_0: 3c03e7af
/model.22/cv3.2/cv3.2.0/act/Mul_output_0: 3c901995
/model.22/cv3.2/cv3.2.1/conv/Conv_output_0: 3dcbf8a6
/model.22/cv3.2/cv3.2.1/act/Sigmoid_output_0: 3c014d6c
/model.22/cv3.2/cv3.2.1/act/Mul_output_0: 3d6ece25
/model.22/cv3.2/cv3.2.2/Conv_output_0: 3e4c9528
/model.22/Concat_7_output_0: 3e12c392
/model.22/Reshape_3_output_0: 3e193e7e
/model.22/Reshape_4_output_0: 3e44b3aa
/model.22/Reshape_5_output_0: 3e12c392
/model.22/Concat_11_output_0: 3e2896a8
(Unnamed Layer* 347) [Constant]_output: 3e810a14
/model.22/Split_output_0: 3d810a14
/model.22/Split_output_1: 3e010a14
/model.22/Split_output_2: 3e810a14
/model.22/Range_output_0: 3f1f4871
(Unnamed Layer* 371) [Shuffle]_output: 3c010a14
(Unnamed Layer* 373) [Shuffle]_output: 3b810a14
/model.22/Add_output_0: 3f204a85
/model.22/Range_1_output_0: 3f1f4871
(Unnamed Layer* 386) [Shuffle]_output: 3c010a14
(Unnamed Layer* 388) [Shuffle]_output: 3b810a14
/model.22/Add_1_output_0: 3f204a85
/model.22/Reshape_8_output_0: 3f204a85
/model.22/Expand_output_0: 3f204a85
/model.22/Reshape_9_output_0: 3f204a85
/model.22/Expand_1_output_0: 3f204a85
/model.22/Unsqueeze_7_output_0: 3f204a85
/model.22/Unsqueeze_8_output_0: 3f204a85
/model.22/Concat_15_output_0: 3f204a85
/model.22/Reshape_10_output_0: 3f204a85
(Unnamed Layer* 439) [Constant]_output: 0
(Unnamed Layer* 440) [Shuffle]_output: 0
/model.22/ConstantOfShape_output_0: 0
(Unnamed Layer* 443) [Shuffle]_output: 3d810a14
/model.22/Add_2_output_0: 3d810a14
/model.22/Range_2_output_0: 3e9d4449
(Unnamed Layer* 462) [Shuffle]_output: 3c010a14
(Unnamed Layer* 464) [Shuffle]_output: 3b810a14
/model.22/Add_3_output_0: 3e9f4871
/model.22/Range_3_output_0: 3e9d4449
(Unnamed Layer* 477) [Shuffle]_output: 3c010a14
(Unnamed Layer* 479) [Shuffle]_output: 3b810a14
/model.22/Add_4_output_0: 3e9f4871
/model.22/Reshape_13_output_0: 3e9f4871
/model.22/Expand_2_output_0: 3e9f4871
/model.22/Reshape_14_output_0: 3e9f4871
/model.22/Expand_3_output_0: 3e9f4871
/model.22/Unsqueeze_10_output_0: 3e9f4871
/model.22/Unsqueeze_11_output_0: 3e9f4871
/model.22/Concat_20_output_0: 3e9f4871
/model.22/Reshape_15_output_0: 3e9f4871
(Unnamed Layer* 530) [Constant]_output: 0
(Unnamed Layer* 531) [Shuffle]_output: 0
/model.22/ConstantOfShape_1_output_0: 0
(Unnamed Layer* 534) [Shuffle]_output: 3e010a14
/model.22/Add_5_output_0: 3e010a14
/model.22/Range_4_output_0: 3e193bf8
(Unnamed Layer* 553) [Shuffle]_output: 3c010a14
(Unnamed Layer* 555) [Shuffle]_output: 3b810a14
/model.22/Add_6_output_0: 3e1d4449
/model.22/Range_5_output_0: 3e193bf8
(Unnamed Layer* 568) [Shuffle]_output: 3c010a14
(Unnamed Layer* 570) [Shuffle]_output: 3b810a14
/model.22/Add_7_output_0: 3e1d4449
/model.22/Reshape_18_output_0: 3e1d4449
/model.22/Expand_4_output_0: 3e1d4449
/model.22/Reshape_19_output_0: 3e1d4449
/model.22/Expand_5_output_0: 3e1d4449
/model.22/Unsqueeze_13_output_0: 3e1d4449
/model.22/Unsqueeze_14_output_0: 3e1d4449
/model.22/Concat_25_output_0: 3e1d4449
/model.22/Reshape_20_output_0: 3e1d4449
(Unnamed Layer* 621) [Constant]_output: 0
(Unnamed Layer* 622) [Shuffle]_output: 0
/model.22/ConstantOfShape_2_output_0: 0
(Unnamed Layer* 625) [Shuffle]_output: 3e810a14
/model.22/Add_8_output_0: 3e810a14
/model.22/Concat_27_output_0: 3f204a85
/model.22/Concat_28_output_0: 3e810a14
/model.22/Transpose_output_0: 3f204a85
/model.22/Transpose_1_output_0: 3e810a14
/model.22/Split_1_output_0: 3dbb6d77
/model.22/Split_1_output_1: 3e4282dc
/model.22/dfl/Reshape_output_0: 3dbb6d77
/model.22/dfl/Transpose_output_0: 3dbb6d77
(Unnamed Layer* 654) [Softmax]_output: 3bd04aa3
/model.22/dfl/conv/Conv_output_0: 3ded41f5
/model.22/dfl/Reshape_1_output_0: 3ded41f5
/model.22/Unsqueeze_16_output_0: 3f204a85
/model.22/Slice_output_0: 3deaab0f
/model.22/Slice_1_output_0: 3dc5a6d6
/model.22/Sub_output_0: 3f2050fb
/model.22/Add_10_output_0: 3f28ed6b
/model.22/Add_11_output_0: 3fa3d07d
(Unnamed Layer* 737) [Shuffle]_output: 3c810a14
/model.22/Div_1_output_0: 3f23d07d
/model.22/Sub_1_output_0: 3e563f8e
/model.22/Concat_29_output_0: 3f226724
(Unnamed Layer* 744) [Shuffle]_output: 3e810a14
/model.22/Mul_5_output_0: 40a26724
/model.22/Sigmoid_output_0: 3b1dc8b3
/model.22/Reshape_21_output_0: 3d51eff7
/model.22/Slice_2_output_0: 3d24d034
(Unnamed Layer* 779) [Shuffle]_output: 3c810a14
/model.22/Mul_6_output_0: 3da4d034
(Unnamed Layer* 782) [Shuffle]_output: 3b810a14
/model.22/Sub_2_output_0: 3f1f4871
(Unnamed Layer* 787) [Shuffle]_output: 3f1f4871
/model.22/Add_12_output_0: 3f30a784
(Unnamed Layer* 792) [Shuffle]_output: 3e810a14
/model.22/Mul_7_output_0: 40bd75be
/model.22/Slice_3_output_0: 3d6c5f24
/model.22/Sigmoid_1_output_0: 3c049be2
/model.22/Concat_31_output_0: 40a952f8
/model.22/Reshape_22_output_0: 40a952f8
output0: 40a952f8
